unsigned char g_model[] = {
  0x1c, 0x00, 0x00, 0x00, 0x54, 0x46, 0x4c, 0x33, 0x14, 0x00, 0x20, 0x00,
  0x04, 0x00, 0x08, 0x00, 0x0c, 0x00, 0x10, 0x00, 0x14, 0x00, 0x00, 0x00,
  0x18, 0x00, 0x1c, 0x00, 0x14, 0x00, 0x00, 0x00, 0x03, 0x00, 0x00, 0x00,
  0x18, 0x00, 0x00, 0x00, 0x20, 0x00, 0x00, 0x00, 0x40, 0x01, 0x00, 0x00,
  0x20, 0x00, 0x00, 0x00, 0xe8, 0x00, 0x00, 0x00, 0x50, 0x00, 0x00, 0x00,
  0x02, 0x00, 0x00, 0x00, 0x30, 0x04, 0x00, 0x00, 0x00, 0x02, 0x00, 0x00,
  0x01, 0x00, 0x00, 0x00, 0x44, 0x01, 0x00, 0x00, 0x0d, 0x00, 0x00, 0x00,
  0x10, 0x0d, 0x00, 0x00, 0x0c, 0x0d, 0x00, 0x00, 0x44, 0x0c, 0x00, 0x00,
  0xcc, 0x0b, 0x00, 0x00, 0x38, 0x0b, 0x00, 0x00, 0xb4, 0x08, 0x00, 0x00,
  0x40, 0x05, 0x00, 0x00, 0x9c, 0x04, 0x00, 0x00, 0xf0, 0x0c, 0x00, 0x00,
  0xec, 0x0c, 0x00, 0x00, 0xe8, 0x0c, 0x00, 0x00, 0xe4, 0x0c, 0x00, 0x00,
  0xcc, 0x00, 0x00, 0x00, 0x01, 0x00, 0x00, 0x00, 0x10, 0x00, 0x00, 0x00,
  0x0c, 0x00, 0x14, 0x00, 0x10, 0x00, 0x0c, 0x00, 0x08, 0x00, 0x04, 0x00,
  0x0c, 0x00, 0x00, 0x00, 0x10, 0x00, 0x00, 0x00, 0x18, 0x00, 0x00, 0x00,
  0x28, 0x00, 0x00, 0x00, 0x2c, 0x00, 0x00, 0x00, 0x05, 0x00, 0x00, 0x00,
  0x73, 0x65, 0x72, 0x76, 0x65, 0x00, 0x00, 0x00, 0x0f, 0x00, 0x00, 0x00,
  0x73, 0x65, 0x72, 0x76, 0x69, 0x6e, 0x67, 0x5f, 0x64, 0x65, 0x66, 0x61,
  0x75, 0x6c, 0x74, 0x00, 0x01, 0x00, 0x00, 0x00, 0x14, 0x00, 0x00, 0x00,
  0x01, 0x00, 0x00, 0x00, 0x24, 0x00, 0x00, 0x00, 0x08, 0x00, 0x0c, 0x00,
  0x08, 0x00, 0x04, 0x00, 0x08, 0x00, 0x00, 0x00, 0x0a, 0x00, 0x00, 0x00,
  0x04, 0x00, 0x00, 0x00, 0x06, 0x00, 0x00, 0x00, 0x79, 0x5f, 0x70, 0x72,
  0x65, 0x64, 0x00, 0x00, 0x66, 0xf4, 0xff, 0xff, 0x04, 0x00, 0x00, 0x00,
  0x0d, 0x00, 0x00, 0x00, 0x64, 0x65, 0x6e, 0x73, 0x65, 0x5f, 0x36, 0x5f,
  0x69, 0x6e, 0x70, 0x75, 0x74, 0x00, 0x00, 0x00, 0x01, 0x00, 0x00, 0x00,
  0x0c, 0x00, 0x00, 0x00, 0x08, 0x00, 0x0c, 0x00, 0x04, 0x00, 0x08, 0x00,
  0x08, 0x00, 0x00, 0x00, 0x08, 0x00, 0x00, 0x00, 0x0c, 0x00, 0x00, 0x00,
  0x13, 0x00, 0x00, 0x00, 0x6d, 0x69, 0x6e, 0x5f, 0x72, 0x75, 0x6e, 0x74,
  0x69, 0x6d, 0x65, 0x5f, 0x76, 0x65, 0x72, 0x73, 0x69, 0x6f, 0x6e, 0x00,
  0xb6, 0xf4, 0xff, 0xff, 0x04, 0x00, 0x00, 0x00, 0x10, 0x00, 0x00, 0x00,
  0x31, 0x2e, 0x35, 0x2e, 0x30, 0x00, 0x00, 0x00, 0x00, 0x00, 0x00, 0x00,
  0x00, 0x00, 0x00, 0x00, 0x0f, 0x00, 0x00, 0x00, 0x4d, 0x4c, 0x49, 0x52,
  0x20, 0x43, 0x6f, 0x6e, 0x76, 0x65, 0x72, 0x74, 0x65, 0x64, 0x2e, 0x00,
  0x00, 0x00, 0x0e, 0x00, 0x18, 0x00, 0x04, 0x00, 0x08, 0x00, 0x0c, 0x00,
  0x10, 0x00, 0x14, 0x00, 0x0e, 0x00, 0x00, 0x00, 0x14, 0x00, 0x00, 0x00,
  0x40, 0x00, 0x00, 0x00, 0x44, 0x00, 0x00, 0x00, 0x48, 0x00, 0x00, 0x00,
  0x58, 0x00, 0x00, 0x00, 0x0b, 0x00, 0x00, 0x00, 0x5c, 0x0b, 0x00, 0x00,
  0x14, 0x0b, 0x00, 0x00, 0xac, 0x0a, 0x00, 0x00, 0x40, 0x0a, 0x00, 0x00,
  0x9c, 0x09, 0x00, 0x00, 0x18, 0x07, 0x00, 0x00, 0xa4, 0x03, 0x00, 0x00,
  0xb8, 0x02, 0x00, 0x00, 0xc0, 0x01, 0x00, 0x00, 0x08, 0x01, 0x00, 0x00,
  0x80, 0x00, 0x00, 0x00, 0x01, 0x00, 0x00, 0x00, 0x00, 0x00, 0x00, 0x00,
  0x01, 0x00, 0x00, 0x00, 0x0a, 0x00, 0x00, 0x00, 0x04, 0x00, 0x00, 0x00,
  0x3c, 0x02, 0x00, 0x00, 0x68, 0x01, 0x00, 0x00, 0xb4, 0x00, 0x00, 0x00,
  0x1c, 0x00, 0x00, 0x00, 0x04, 0x00, 0x00, 0x00, 0x6d, 0x61, 0x69, 0x6e,
  0x00, 0x00, 0x0e, 0x00, 0x18, 0x00, 0x08, 0x00, 0x0c, 0x00, 0x10, 0x00,
  0x07, 0x00, 0x14, 0x00, 0x0e, 0x00, 0x00, 0x00, 0x00, 0x00, 0x00, 0x09,
  0x01, 0x00, 0x00, 0x00, 0x1c, 0x00, 0x00, 0x00, 0x10, 0x00, 0x00, 0x00,
  0x04, 0x00, 0x00, 0x00, 0x92, 0xf5, 0xff, 0xff, 0x00, 0x00, 0x80, 0x3f,
  0x01, 0x00, 0x00, 0x00, 0x0a, 0x00, 0x00, 0x00, 0x01, 0x00, 0x00, 0x00,
  0x09, 0x00, 0x00, 0x00, 0xe0, 0xfd, 0xff, 0xff, 0x19, 0x00, 0x00, 0x00,
  0x00, 0x00, 0x00, 0x19, 0x01, 0x00, 0x00, 0x00, 0x60, 0xf5, 0xff, 0xff,
  0x14, 0x00, 0x00, 0x00, 0x0b, 0x00, 0x00, 0x00, 0x18, 0x00, 0x00, 0x00,
  0x40, 0x00, 0x00, 0x00, 0x30, 0x00, 0x00, 0x00, 0x02, 0x00, 0x00, 0x00,
  0x01, 0x00, 0x00, 0x00, 0x02, 0x00, 0x00, 0x00, 0x19, 0x00, 0x00, 0x00,
  0x53, 0x74, 0x61, 0x74, 0x65, 0x66, 0x75, 0x6c, 0x50, 0x61, 0x72, 0x74,
  0x69, 0x74, 0x69, 0x6f, 0x6e, 0x65, 0x64, 0x43, 0x61, 0x6c, 0x6c, 0x3a,
  0x30, 0x00, 0x00, 0x00, 0x02, 0x00, 0x00, 0x00, 0xff, 0xff, 0xff, 0xff,
  0x02, 0x00, 0x00, 0x00, 0x44, 0xf5, 0xff, 0xff, 0x5e, 0xff, 0xff, 0xff,
  0x00, 0x00, 0x00, 0x08, 0x18, 0x00, 0x00, 0x00, 0x0c, 0x00, 0x00, 0x00,
  0x04, 0x00, 0x00, 0x00, 0x5c, 0xf5, 0xff, 0xff, 0x01, 0x00, 0x00, 0x00,
  0x09, 0x00, 0x00, 0x00, 0x03, 0x00, 0x00, 0x00, 0x08, 0x00, 0x00, 0x00,
  0x06, 0x00, 0x00, 0x00, 0x01, 0x00, 0x00, 0x00, 0xe4, 0xf5, 0xff, 0xff,
  0x14, 0x00, 0x00, 0x00, 0x0a, 0x00, 0x00, 0x00, 0x18, 0x00, 0x00, 0x00,
  0x5c, 0x00, 0x00, 0x00, 0x4c, 0x00, 0x00, 0x00, 0x02, 0x00, 0x00, 0x00,
  0x01, 0x00, 0x00, 0x00, 0x02, 0x00, 0x00, 0x00, 0x36, 0x00, 0x00, 0x00,
  0x73, 0x65, 0x71, 0x75, 0x65, 0x6e, 0x74, 0x69, 0x61, 0x6c, 0x5f, 0x33,
  0x2f, 0x79, 0x5f, 0x70, 0x72, 0x65, 0x64, 0x2f, 0x4d, 0x61, 0x74, 0x4d,
  0x75, 0x6c, 0x3b, 0x73, 0x65, 0x71, 0x75, 0x65, 0x6e, 0x74, 0x69, 0x61,
  0x6c, 0x5f, 0x33, 0x2f, 0x79, 0x5f, 0x70, 0x72, 0x65, 0x64, 0x2f, 0x42,
  0x69, 0x61, 0x73, 0x41, 0x64, 0x64, 0x00, 0x00, 0x02, 0x00, 0x00, 0x00,
  0xff, 0xff, 0xff, 0xff, 0x02, 0x00, 0x00, 0x00, 0xb4, 0xf6, 0xff, 0xff,
  0x00, 0x00, 0x0e, 0x00, 0x14, 0x00, 0x00, 0x00, 0x08, 0x00, 0x0c, 0x00,
  0x07, 0x00, 0x10, 0x00, 0x0e, 0x00, 0x00, 0x00, 0x00, 0x00, 0x00, 0x08,
  0x1c, 0x00, 0x00, 0x00, 0x10, 0x00, 0x00, 0x00, 0x04, 0x00, 0x00, 0x00,
  0x2e, 0xff, 0xff, 0xff, 0x00, 0x00, 0x00, 0x01, 0x01, 0x00, 0x00, 0x00,
  0x08, 0x00, 0x00, 0x00, 0x03, 0x00, 0x00, 0x00, 0x07, 0x00, 0x00, 0x00,
  0x05, 0x00, 0x00, 0x00, 0x02, 0x00, 0x00, 0x00, 0x98, 0xf6, 0xff, 0xff,
  0x14, 0x00, 0x00, 0x00, 0x09, 0x00, 0x00, 0x00, 0x18, 0x00, 0x00, 0x00,
  0x78, 0x00, 0x00, 0x00, 0x68, 0x00, 0x00, 0x00, 0x02, 0x00, 0x00, 0x00,
  0x01, 0x00, 0x00, 0x00, 0x0a, 0x00, 0x00, 0x00, 0x52, 0x00, 0x00, 0x00,
  0x73, 0x65, 0x71, 0x75, 0x65, 0x6e, 0x74, 0x69, 0x61, 0x6c, 0x5f, 0x33,
  0x2f, 0x64, 0x65, 0x6e, 0x73, 0x65, 0x5f, 0x37, 0x2f, 0x4d, 0x61, 0x74,
  0x4d, 0x75, 0x6c, 0x3b, 0x73, 0x65, 0x71, 0x75, 0x65, 0x6e, 0x74, 0x69,
  0x61, 0x6c, 0x5f, 0x33, 0x2f, 0x64, 0x65, 0x6e, 0x73, 0x65, 0x5f, 0x37,
  0x2f, 0x42, 0x69, 0x61, 0x73, 0x41, 0x64, 0x64, 0x3b, 0x73, 0x65, 0x71,
  0x75, 0x65, 0x6e, 0x74, 0x69, 0x61, 0x6c, 0x5f, 0x33, 0x2f, 0x64, 0x65,
  0x6e, 0x73, 0x65, 0x5f, 0x37, 0x2f, 0x52, 0x65, 0x6c, 0x75, 0x00, 0x00,
  0x02, 0x00, 0x00, 0x00, 0xff, 0xff, 0xff, 0xff, 0x0a, 0x00, 0x00, 0x00,
  0x84, 0xf7, 0xff, 0xff, 0x00, 0x00, 0x0e, 0x00, 0x16, 0x00, 0x00, 0x00,
  0x08, 0x00, 0x0c, 0x00, 0x07, 0x00, 0x10, 0x00, 0x0e, 0x00, 0x00, 0x00,
  0x00, 0x00, 0x00, 0x08, 0x24, 0x00, 0x00, 0x00, 0x18, 0x00, 0x00, 0x00,
  0x0c, 0x00, 0x00, 0x00, 0x00, 0x00, 0x06, 0x00, 0x08, 0x00, 0x07, 0x00,
  0x06, 0x00, 0x00, 0x00, 0x00, 0x00, 0x00, 0x01, 0x01, 0x00, 0x00, 0x00,
  0x07, 0x00, 0x00, 0x00, 0x03, 0x00, 0x00, 0x00, 0x00, 0x00, 0x00, 0x00,
  0x04, 0x00, 0x00, 0x00, 0x03, 0x00, 0x00, 0x00, 0x0c, 0x00, 0x10, 0x00,
  0x0b, 0x00, 0x00, 0x00, 0x0c, 0x00, 0x04, 0x00, 0x0c, 0x00, 0x00, 0x00,
  0x09, 0x00, 0x00, 0x00, 0x00, 0x00, 0x00, 0x09, 0x01, 0x00, 0x00, 0x00,
  0x8c, 0xf7, 0xff, 0xff, 0x14, 0x00, 0x00, 0x00, 0x08, 0x00, 0x00, 0x00,
  0x18, 0x00, 0x00, 0x00, 0x78, 0x00, 0x00, 0x00, 0x68, 0x00, 0x00, 0x00,
  0x02, 0x00, 0x00, 0x00, 0x01, 0x00, 0x00, 0x00, 0x14, 0x00, 0x00, 0x00,
  0x52, 0x00, 0x00, 0x00, 0x73, 0x65, 0x71, 0x75, 0x65, 0x6e, 0x74, 0x69,
  0x61, 0x6c, 0x5f, 0x33, 0x2f, 0x64, 0x65, 0x6e, 0x73, 0x65, 0x5f, 0x36,
  0x2f, 0x4d, 0x61, 0x74, 0x4d, 0x75, 0x6c, 0x3b, 0x73, 0x65, 0x71, 0x75,
  0x65, 0x6e, 0x74, 0x69, 0x61, 0x6c, 0x5f, 0x33, 0x2f, 0x64, 0x65, 0x6e,
  0x73, 0x65, 0x5f, 0x36, 0x2f, 0x42, 0x69, 0x61, 0x73, 0x41, 0x64, 0x64,
  0x3b, 0x73, 0x65, 0x71, 0x75, 0x65, 0x6e, 0x74, 0x69, 0x61, 0x6c, 0x5f,
  0x33, 0x2f, 0x64, 0x65, 0x6e, 0x73, 0x65, 0x5f, 0x36, 0x2f, 0x52, 0x65,
  0x6c, 0x75, 0x00, 0x00, 0x02, 0x00, 0x00, 0x00, 0xff, 0xff, 0xff, 0xff,
  0x14, 0x00, 0x00, 0x00, 0xa8, 0xf7, 0xff, 0xff, 0x72, 0xf8, 0xff, 0xff,
  0x04, 0x00, 0x00, 0x00, 0x50, 0x00, 0x00, 0x00, 0x48, 0x8d, 0x54, 0xbe,
  0x9e, 0x49, 0x33, 0xbf, 0x20, 0x0e, 0x7d, 0xbd, 0x44, 0xfc, 0x1f, 0xbf,
  0x02, 0xec, 0xec, 0x3c, 0xbe, 0x77, 0xf0, 0xbe, 0x0f, 0x71, 0x9c, 0x3e,
  0x40, 0x15, 0xdd, 0x3e, 0xf1, 0xf1, 0x9e, 0xba, 0xc2, 0x3c, 0x82, 0x3e,
  0xa2, 0xb9, 0xd0, 0x3e, 0xa0, 0xb9, 0x20, 0xbf, 0xe8, 0x37, 0x86, 0xbd,
  0xdb, 0x8e, 0x14, 0x3f, 0x91, 0x95, 0x14, 0x3f, 0x82, 0xc9, 0xc0, 0x3e,
  0x75, 0x9d, 0xab, 0x3e, 0x3a, 0x5c, 0x5d, 0xbc, 0x48, 0xa6, 0x2d, 0x3e,
  0x42, 0x56, 0x1d, 0xbc, 0xb2, 0xf8, 0xff, 0xff, 0x10, 0x00, 0x00, 0x00,
  0x07, 0x00, 0x00, 0x00, 0x14, 0x00, 0x00, 0x00, 0x30, 0x00, 0x00, 0x00,
  0x02, 0x00, 0x00, 0x00, 0x02, 0x00, 0x00, 0x00, 0x0a, 0x00, 0x00, 0x00,
  0x1a, 0x00, 0x00, 0x00, 0x73, 0x65, 0x71, 0x75, 0x65, 0x6e, 0x74, 0x69,
  0x61, 0x6c, 0x5f, 0x33, 0x2f, 0x79, 0x5f, 0x70, 0x72, 0x65, 0x64, 0x2f,
  0x4d, 0x61, 0x74, 0x4d, 0x75, 0x6c, 0x00, 0x00, 0x48, 0xf8, 0xff, 0xff,
  0x12, 0xf9, 0xff, 0xff, 0x04, 0x00, 0x00, 0x00, 0x20, 0x03, 0x00, 0x00,
  0xac, 0xde, 0x8b, 0xbe, 0x40, 0xa6, 0x65, 0xbc, 0xa8, 0xb6, 0xfb, 0x3d,
  0x28, 0x14, 0x99, 0x3d, 0xf8, 0xcb, 0xb8, 0x3e, 0x1f, 0x46, 0x85, 0xbe,
  0x94, 0x5b, 0xed, 0xbd, 0x80, 0x9e, 0x99, 0x3d, 0xb2, 0xc2, 0xb9, 0xbe,
  0xb4, 0x9f, 0xc9, 0xbe, 0x12, 0x84, 0x0b, 0xbe, 0xce, 0xb7, 0x74, 0xbe,
  0x06, 0x3e, 0xc6, 0x3e, 0xda, 0xe0, 0xb2, 0x3e, 0x08, 0x6f, 0xf6, 0xbd,
  0x80, 0x0d, 0x86, 0x3b, 0xff, 0x3d, 0xc0, 0xbe, 0x20, 0xaf, 0x76, 0x3d,
  0x0e, 0x77, 0x02, 0xbe, 0x90, 0xe5, 0x5b, 0x3d, 0x86, 0xaa, 0x8f, 0xbe,
  0xc8, 0x3c, 0x80, 0x3d, 0x5d, 0xc3, 0x5d, 0xbe, 0xd4, 0xcc, 0x2a, 0x3e,
  0xc0, 0xad, 0xd8, 0x3d, 0x58, 0x2c, 0x1c, 0x3d, 0x08, 0x9e, 0x99, 0x3e,
  0x22, 0x90, 0x41, 0xbe, 0xb0, 0x49, 0x1f, 0xbe, 0x86, 0x5d, 0x9f, 0xbe,
  0x28, 0x9a, 0x8c, 0x3d, 0x3e, 0x2f, 0xaa, 0xbe, 0x2c, 0xbb, 0xcf, 0xbd,
  0x36, 0x5d, 0x06, 0xbe, 0xeb, 0x7f, 0xa9, 0xbe, 0x72, 0x10, 0xbe, 0xbe,
  0xce, 0xc5, 0x34, 0xbe, 0x00, 0x80, 0x90, 0x3e, 0x1c, 0x95, 0x54, 0x3e,
  0xfe, 0xa2, 0xbc, 0xbe, 0xba, 0x2e, 0xac, 0xbe, 0xfc, 0x06, 0x98, 0x3e,
  0x60, 0x9d, 0xd4, 0x3d, 0x84, 0x86, 0x5e, 0xbe, 0x3a, 0x7b, 0x8c, 0x3e,
  0xc0, 0xd0, 0xe9, 0xbb, 0x60, 0x69, 0x38, 0x3e, 0x8e, 0x51, 0x42, 0xbe,
  0x76, 0x3d, 0xae, 0x3e, 0x16, 0xb4, 0xa6, 0x3e, 0xa4, 0xbf, 0x80, 0xbe,
  0xb8, 0x4f, 0x47, 0xbe, 0x18, 0x0b, 0x0c, 0x3e, 0x02, 0x97, 0xd0, 0xbe,
  0xd0, 0xfb, 0x09, 0x3e, 0x16, 0x39, 0x0f, 0xbe, 0x6c, 0xce, 0xc8, 0xbd,
  0x62, 0xab, 0xd7, 0x3e, 0x82, 0x0f, 0xc3, 0xbe, 0xa4, 0xb6, 0xfe, 0xbd,
  0xc6, 0x22, 0x91, 0xbe, 0xdc, 0x43, 0xa1, 0xbd, 0x6d, 0x89, 0x85, 0xbe,
  0x32, 0x44, 0xb4, 0xbe, 0x90, 0x21, 0x7c, 0xbd, 0x7c, 0xaa, 0x49, 0x3e,
  0x1e, 0xf9, 0x8b, 0x3e, 0x2e, 0x32, 0xa6, 0x3e, 0x8c, 0x2d, 0xc1, 0x3e,
  0xa6, 0x2b, 0xa2, 0xbe, 0xc0, 0x32, 0xa9, 0x3e, 0xe4, 0xc5, 0x2a, 0x3e,
  0x80, 0x63, 0x00, 0x3c, 0x82, 0x77, 0x8d, 0xbe, 0x08, 0xf1, 0xce, 0xbd,
  0x9e, 0xe9, 0xd7, 0x3e, 0xe0, 0x2b, 0xbd, 0x3d, 0x68, 0x8e, 0xf7, 0x3d,
  0xf8, 0xe5, 0xe5, 0x3d, 0xf2, 0x54, 0x93, 0xbe, 0x48, 0x87, 0x83, 0x3d,
  0xaa, 0x1a, 0xbe, 0x3b, 0x89, 0x58, 0x6d, 0xbe, 0xa8, 0xcf, 0xa6, 0xbe,
  0x74, 0xd6, 0xd8, 0xbe, 0x18, 0x2a, 0xbd, 0x3e, 0x84, 0x76, 0x1a, 0xbe,
  0x90, 0xa4, 0xd2, 0xbc, 0x74, 0x51, 0x7d, 0xbe, 0xbc, 0xb3, 0xda, 0x3e,
  0x60, 0xe2, 0xaf, 0x3c, 0xe0, 0x4c, 0xd4, 0xbe, 0x4b, 0xb1, 0xba, 0xbe,
  0x4f, 0xb1, 0x25, 0x3e, 0x28, 0x62, 0x89, 0xbd, 0xf6, 0x93, 0xa1, 0x3d,
  0xdc, 0xa4, 0xac, 0x3d, 0x56, 0x07, 0xc5, 0xbe, 0x1c, 0x28, 0xda, 0x3e,
  0xfc, 0xcd, 0xdd, 0x3d, 0xb0, 0x18, 0x85, 0x3e, 0xf2, 0xb7, 0xb2, 0x3e,
  0x76, 0xfe, 0xae, 0xbe, 0xf8, 0x2f, 0x1a, 0x3d, 0xeb, 0xd7, 0x97, 0xbe,
  0xd4, 0xcd, 0xab, 0xbd, 0x40, 0x2c, 0x50, 0x3c, 0xc8, 0x16, 0xc6, 0xbd,
  0x80, 0xc2, 0xcf, 0x3e, 0xd1, 0x0a, 0xce, 0xbe, 0x94, 0x47, 0xe2, 0xbe,
  0x14, 0xc8, 0xd0, 0x3e, 0x9a, 0x1f, 0xa9, 0xbe, 0x78, 0xc7, 0x4b, 0x3e,
  0xf1, 0x95, 0x5e, 0xbe, 0x12, 0x42, 0xad, 0x3e, 0x4e, 0x6c, 0xbd, 0xbe,
  0x18, 0xdd, 0x0d, 0xbd, 0xbb, 0x5d, 0xbd, 0xbe, 0x08, 0x9b, 0x9a, 0x3e,
  0x1e, 0xcb, 0xae, 0x3e, 0x52, 0xc9, 0x1e, 0xbe, 0xf8, 0x31, 0x4a, 0x3d,
  0x0a, 0xe6, 0xac, 0x3e, 0xf9, 0x10, 0x8a, 0x3e, 0x30, 0xc8, 0xf4, 0xbd,
  0x00, 0x5a, 0x59, 0x3d, 0x18, 0x70, 0x4c, 0x3e, 0x7f, 0xcb, 0x41, 0x3e,
  0xeb, 0x1d, 0xbe, 0x3e, 0xaf, 0x26, 0x55, 0xbe, 0xd7, 0x08, 0x84, 0x3e,
  0x23, 0xc2, 0xd9, 0xbe, 0x60, 0xd1, 0x03, 0xbd, 0xd0, 0xd7, 0xe9, 0xbc,
  0x47, 0x54, 0x26, 0xbd, 0xf8, 0x5b, 0x32, 0x3e, 0xfc, 0x94, 0xb8, 0xbd,
  0x59, 0xc8, 0x27, 0x3e, 0x3b, 0x4a, 0x42, 0xbe, 0xe3, 0x2d, 0x70, 0xbe,
  0x73, 0xf9, 0xd0, 0x3e, 0x6d, 0x20, 0x75, 0xbe, 0x29, 0xbf, 0xd1, 0xbe,
  0xee, 0x8a, 0xbb, 0xbd, 0x00, 0xb7, 0x8e, 0xbd, 0x48, 0xf1, 0x01, 0xbe,
  0x45, 0x09, 0xb2, 0xbe, 0xce, 0xce, 0xba, 0x3e, 0xe4, 0x3b, 0x8f, 0x3e,
  0xd0, 0xf2, 0x8c, 0x3e, 0xde, 0x05, 0xc7, 0x3e, 0x44, 0x3b, 0xa9, 0xbd,
  0xdf, 0x9b, 0xe4, 0xbc, 0x08, 0x67, 0xc5, 0xbd, 0x18, 0x54, 0x27, 0xbe,
  0x40, 0x2f, 0x81, 0xbe, 0x28, 0x8a, 0x8e, 0x3d, 0xdf, 0x1a, 0x3f, 0xbe,
  0xba, 0x69, 0x3c, 0x3e, 0xa4, 0x2b, 0x96, 0xbe, 0xe0, 0x1c, 0x83, 0x3e,
  0xe0, 0xd6, 0xf7, 0x3c, 0x38, 0xd2, 0x4b, 0x3e, 0x19, 0x7b, 0xce, 0x3e,
  0xc0, 0xce, 0x5f, 0xbc, 0x08, 0xa9, 0x78, 0x3e, 0xaf, 0x2b, 0xd3, 0xbe,
  0xf6, 0xb1, 0xae, 0xbd, 0xba, 0x01, 0x9c, 0xbe, 0xc4, 0xb7, 0x35, 0x3e,
  0xea, 0x9c, 0xa4, 0x3e, 0x9e, 0x6b, 0xc6, 0x3e, 0x43, 0x7a, 0xdd, 0x3e,
  0x98, 0xa1, 0x90, 0xbd, 0x44, 0x40, 0x4f, 0x3e, 0x5a, 0x5e, 0xab, 0xbe,
  0xea, 0xcf, 0xc6, 0x3e, 0x97, 0x01, 0x32, 0x3b, 0x5d, 0x08, 0xb6, 0x3c,
  0xc0, 0x0a, 0xef, 0xbd, 0xac, 0x3f, 0x24, 0x3e, 0x50, 0x0c, 0xba, 0x3d,
  0x94, 0xf9, 0xa9, 0x3e, 0x66, 0xc5, 0xa2, 0xbe, 0x90, 0x7e, 0x82, 0x3e,
  0x28, 0x06, 0x9b, 0x3e, 0x39, 0xcf, 0x72, 0xbe, 0x94, 0x17, 0xa3, 0x3e,
  0x5c, 0xb1, 0x1e, 0xbe, 0x78, 0xe7, 0xac, 0xbd, 0xce, 0x0a, 0xfc, 0x3d,
  0x6f, 0xc2, 0xbc, 0xbe, 0xdb, 0x57, 0x18, 0xbe, 0xdd, 0x39, 0xb2, 0xbe,
  0xce, 0x59, 0xc2, 0x3d, 0xb8, 0xe1, 0xd4, 0x3e, 0x54, 0x2c, 0xcd, 0x3e,
  0x7c, 0xc0, 0x1a, 0xbe, 0x4f, 0xd9, 0xc9, 0x3e, 0x22, 0xfc, 0xff, 0xff,
  0x10, 0x00, 0x00, 0x00, 0x06, 0x00, 0x00, 0x00, 0x14, 0x00, 0x00, 0x00,
  0x30, 0x00, 0x00, 0x00, 0x02, 0x00, 0x00, 0x00, 0x0a, 0x00, 0x00, 0x00,
  0x14, 0x00, 0x00, 0x00, 0x1b, 0x00, 0x00, 0x00, 0x73, 0x65, 0x71, 0x75,
  0x65, 0x6e, 0x74, 0x69, 0x61, 0x6c, 0x5f, 0x33, 0x2f, 0x64, 0x65, 0x6e,
  0x73, 0x65, 0x5f, 0x37, 0x2f, 0x4d, 0x61, 0x74, 0x4d, 0x75, 0x6c, 0x00,
  0xb8, 0xfb, 0xff, 0xff, 0x82, 0xfc, 0xff, 0xff, 0x04, 0x00, 0x00, 0x00,
  0x30, 0x02, 0x00, 0x00, 0x64, 0xd6, 0xb0, 0xbe, 0x7b, 0x87, 0xa5, 0xbe,
  0xde, 0xae, 0x8f, 0xbe, 0xf8, 0x63, 0x67, 0x3d, 0x4c, 0xa8, 0x9d, 0xbd,
  0xb8, 0x97, 0x23, 0x3d, 0xda, 0x17, 0xca, 0xbe, 0x9b, 0x7b, 0x9b, 0x3d,
  0x9c, 0xa9, 0xf6, 0x3d, 0xaa, 0x59, 0x86, 0x3c, 0x08, 0x46, 0x29, 0xbe,
  0x95, 0xf1, 0x94, 0x3d, 0x13, 0x65, 0xf1, 0x3e, 0xd5, 0xd6, 0x90, 0x3e,
  0x00, 0xa8, 0x62, 0xbb, 0x37, 0xb1, 0xea, 0xbe, 0xd5, 0xf3, 0xbb, 0xbe,
  0x36, 0x92, 0x48, 0x3e, 0x00, 0x50, 0x32, 0xba, 0x54, 0xae, 0xd6, 0x3d,
  0x96, 0xb3, 0xe3, 0xbe, 0xcc, 0x37, 0xe9, 0xbe, 0x6a, 0xb7, 0x00, 0xbe,
  0xb6, 0x99, 0xbd, 0xbe, 0x36, 0xb6, 0x46, 0x3e, 0x14, 0x91, 0xfc, 0x3d,
  0x86, 0x31, 0x0b, 0x3e, 0x84, 0x08, 0xa6, 0xbe, 0xa7, 0x5d, 0x3c, 0xbb,
  0x89, 0x6d, 0x83, 0x3e, 0x83, 0x94, 0x93, 0xbe, 0x66, 0xee, 0x91, 0x3e,
  0x1b, 0xe2, 0x02, 0x3e, 0xbb, 0xd3, 0xe0, 0x3e, 0xa9, 0x98, 0xb5, 0xbe,
  0x5e, 0x22, 0x70, 0x3e, 0x2e, 0x18, 0x87, 0xbe, 0xac, 0x55, 0xb3, 0xbd,
  0xdc, 0xda, 0x9d, 0xbd, 0x40, 0x00, 0x21, 0xbc, 0x2a, 0x4e, 0x32, 0x3e,
  0x4c, 0x54, 0xe8, 0x3d, 0x71, 0x71, 0xb2, 0xbe, 0x91, 0x36, 0xd7, 0x3e,
  0xb0, 0x43, 0x70, 0xbd, 0x8a, 0xeb, 0x2c, 0xbe, 0x8e, 0x5e, 0x38, 0xbe,
  0x82, 0xd0, 0x0c, 0x3e, 0x5a, 0xde, 0x0b, 0x3e, 0x0e, 0xb4, 0x1e, 0xbe,
  0x8f, 0x2f, 0xe8, 0x3e, 0xc2, 0x04, 0xa1, 0xbe, 0x00, 0x03, 0xde, 0xbd,
  0xc5, 0x4d, 0xc4, 0xbe, 0x4f, 0xf1, 0xdb, 0x3e, 0x3c, 0x18, 0x8b, 0x3d,
  0x6f, 0xcd, 0x0b, 0x3e, 0x0b, 0xd5, 0x3c, 0x3e, 0x84, 0x6c, 0x28, 0x3e,
  0xc1, 0x01, 0xe8, 0xbe, 0x77, 0xdb, 0x89, 0x3e, 0x18, 0xf9, 0x73, 0x3e,
  0xdb, 0xff, 0x17, 0xbe, 0xfd, 0xde, 0x84, 0xbc, 0xf8, 0x61, 0xc0, 0x3d,
  0x62, 0x09, 0x4d, 0x3d, 0x71, 0xa6, 0x70, 0x3e, 0xdf, 0x90, 0xc4, 0xbe,
  0x1d, 0xf3, 0x3d, 0xbd, 0x97, 0xa4, 0x18, 0xbd, 0xc8, 0x37, 0xbf, 0xbe,
  0x20, 0xc4, 0xc5, 0xbe, 0x14, 0xec, 0xe2, 0xbe, 0x70, 0x21, 0xb3, 0xbe,
  0xf9, 0xa2, 0xe0, 0x3e, 0x24, 0x7c, 0x21, 0xbe, 0xaa, 0xa0, 0x19, 0x3e,
  0xd3, 0xf1, 0xc2, 0x3e, 0xbd, 0x7e, 0x7f, 0x3e, 0x44, 0xdb, 0xe9, 0xbc,
  0x20, 0x9b, 0xb7, 0xbd, 0xb6, 0x10, 0xe9, 0x3c, 0x70, 0x60, 0xf6, 0x3e,
  0x55, 0x93, 0xf5, 0x3d, 0x7f, 0xc1, 0x2d, 0x3e, 0x24, 0x50, 0xa0, 0x3e,
  0x33, 0xf3, 0x94, 0x3d, 0x3e, 0xbe, 0x8a, 0xbe, 0xfd, 0x17, 0xac, 0x3e,
  0x07, 0x69, 0xfc, 0xbd, 0x6e, 0x64, 0xfe, 0x3d, 0x57, 0x1f, 0x6b, 0x3d,
  0x19, 0xab, 0xf0, 0x3d, 0x66, 0x0b, 0x03, 0xbe, 0x46, 0x2f, 0xa3, 0x3e,
  0x9b, 0x01, 0xa7, 0x3d, 0x1b, 0xf8, 0x0c, 0xbe, 0x51, 0x7f, 0x69, 0x3e,
  0x70, 0x2d, 0x8d, 0xbe, 0x6e, 0x6e, 0xed, 0xbe, 0xe9, 0x32, 0xed, 0x3e,
  0x0d, 0x07, 0x63, 0xbe, 0x4a, 0x38, 0x62, 0x3e, 0x0a, 0x81, 0x23, 0xbe,
  0xa2, 0x02, 0x73, 0x3e, 0x0a, 0xa7, 0x8f, 0xbe, 0xe8, 0x42, 0xe7, 0x3e,
  0x64, 0x0a, 0x0c, 0xbe, 0x3c, 0x29, 0x2a, 0x3e, 0x75, 0x5e, 0xbf, 0xbd,
  0xbb, 0x64, 0xc3, 0x3e, 0xc7, 0x4e, 0x90, 0xbe, 0x56, 0xb2, 0xb7, 0xbe,
  0x5a, 0x41, 0xc8, 0x3e, 0x85, 0xae, 0x89, 0x3e, 0x5e, 0xd0, 0x8f, 0x3d,
  0x4c, 0x70, 0x04, 0xbd, 0xf7, 0x50, 0x3a, 0x3c, 0xed, 0x94, 0x34, 0xbd,
  0xa2, 0x49, 0x53, 0xbe, 0x00, 0x9d, 0xcf, 0x3c, 0x0d, 0x66, 0xe2, 0xbe,
  0x24, 0x69, 0xcc, 0xbe, 0x7b, 0x15, 0xd3, 0x3e, 0xa4, 0x6c, 0x48, 0xbe,
  0xf4, 0x27, 0x9f, 0x3d, 0xd4, 0x7e, 0x9d, 0xbe, 0x20, 0xd2, 0xc0, 0xbd,
  0xcd, 0xcc, 0xc3, 0x3e, 0x5f, 0xce, 0xd3, 0x3e, 0xee, 0x7c, 0x9a, 0x3e,
  0xed, 0x7c, 0x1c, 0x3e, 0xd7, 0x89, 0x37, 0xbc, 0x44, 0x97, 0x10, 0xbe,
  0xc5, 0x92, 0x54, 0x3e, 0xd5, 0xc1, 0xa0, 0x3e, 0x27, 0xb3, 0x5a, 0x3e,
  0xdf, 0xc7, 0x9d, 0x3d, 0xc1, 0xfb, 0x07, 0x3c, 0x45, 0x80, 0xf2, 0x3b,
  0xa2, 0xfe, 0xff, 0xff, 0x10, 0x00, 0x00, 0x00, 0x05, 0x00, 0x00, 0x00,
  0x14, 0x00, 0x00, 0x00, 0x30, 0x00, 0x00, 0x00, 0x02, 0x00, 0x00, 0x00,
  0x14, 0x00, 0x00, 0x00, 0x07, 0x00, 0x00, 0x00, 0x1b, 0x00, 0x00, 0x00,
  0x73, 0x65, 0x71, 0x75, 0x65, 0x6e, 0x74, 0x69, 0x61, 0x6c, 0x5f, 0x33,
  0x2f, 0x64, 0x65, 0x6e, 0x73, 0x65, 0x5f, 0x36, 0x2f, 0x4d, 0x61, 0x74,
  0x4d, 0x75, 0x6c, 0x00, 0x38, 0xfe, 0xff, 0xff, 0x02, 0xff, 0xff, 0xff,
  0x04, 0x00, 0x00, 0x00, 0x50, 0x00, 0x00, 0x00, 0x00, 0x00, 0x00, 0x00,
  0xc6, 0x40, 0x82, 0x3c, 0x00, 0x00, 0x00, 0x00, 0x00, 0x00, 0x00, 0x00,
  0xf8, 0x5f, 0x9b, 0xbb, 0x00, 0x00, 0x00, 0x00, 0x00, 0x00, 0x00, 0x00,
  0x00, 0x00, 0x00, 0x00, 0xea, 0xc4, 0x8a, 0xbb, 0x54, 0x06, 0x69, 0x3b,
  0x00, 0x00, 0x00, 0x00, 0x33, 0x44, 0x8b, 0xbb, 0x3a, 0x14, 0x53, 0xbb,
  0x09, 0x56, 0x7f, 0x3b, 0x00, 0x00, 0x00, 0x00, 0x66, 0xa3, 0x7f, 0x3b,
  0xa0, 0x37, 0x04, 0xbc, 0x00, 0x00, 0x00, 0x00, 0xc4, 0x92, 0x82, 0x3b,
  0xe4, 0x11, 0x93, 0xbb, 0x42, 0xff, 0xff, 0xff, 0x10, 0x00, 0x00, 0x00,
  0x04, 0x00, 0x00, 0x00, 0x10, 0x00, 0x00, 0x00, 0x20, 0x00, 0x00, 0x00,
  0x01, 0x00, 0x00, 0x00, 0x14, 0x00, 0x00, 0x00, 0x0c, 0x00, 0x00, 0x00,
  0x64, 0x65, 0x6e, 0x73, 0x65, 0x5f, 0x36, 0x2f, 0x62, 0x69, 0x61, 0x73,
  0x00, 0x00, 0x00, 0x00, 0xc8, 0xfe, 0xff, 0xff, 0x92, 0xff, 0xff, 0xff,
  0x04, 0x00, 0x00, 0x00, 0x28, 0x00, 0x00, 0x00, 0x00, 0x00, 0x00, 0x00,
  0x00, 0x00, 0x00, 0x00, 0x00, 0x00, 0x00, 0x00, 0x00, 0x00, 0x00, 0x00,
  0x24, 0xd2, 0x83, 0x3b, 0x00, 0x00, 0x00, 0x00, 0x89, 0x78, 0x34, 0x3b,
  0xa8, 0xaa, 0x89, 0xbb, 0x47, 0xd0, 0x7e, 0x3b, 0x5d, 0x91, 0x8b, 0xbb,
  0xaa, 0xff, 0xff, 0xff, 0x10, 0x00, 0x00, 0x00, 0x03, 0x00, 0x00, 0x00,
  0x10, 0x00, 0x00, 0x00, 0x24, 0x00, 0x00, 0x00, 0x01, 0x00, 0x00, 0x00,
  0x0a, 0x00, 0x00, 0x00, 0x0c, 0x00, 0x00, 0x00, 0x64, 0x65, 0x6e, 0x73,
  0x65, 0x5f, 0x37, 0x2f, 0x62, 0x69, 0x61, 0x73, 0x00, 0x00, 0x00, 0x00,
  0x04, 0x00, 0x06, 0x00, 0x04, 0x00, 0x00, 0x00, 0x00, 0x00, 0x06, 0x00,
  0x08, 0x00, 0x04, 0x00, 0x06, 0x00, 0x00, 0x00, 0x04, 0x00, 0x00, 0x00,
  0x08, 0x00, 0x00, 0x00, 0x57, 0xcb, 0x86, 0xbb, 0x58, 0xcb, 0x86, 0x3b,
  0x00, 0x00, 0x0e, 0x00, 0x14, 0x00, 0x04, 0x00, 0x00, 0x00, 0x08, 0x00,
  0x0c, 0x00, 0x10, 0x00, 0x0e, 0x00, 0x00, 0x00, 0x10, 0x00, 0x00, 0x00,
  0x02, 0x00, 0x00, 0x00, 0x10, 0x00, 0x00, 0x00, 0x1c, 0x00, 0x00, 0x00,
  0x01, 0x00, 0x00, 0x00, 0x02, 0x00, 0x00, 0x00, 0x0b, 0x00, 0x00, 0x00,
  0x79, 0x5f, 0x70, 0x72, 0x65, 0x64, 0x2f, 0x62, 0x69, 0x61, 0x73, 0x00,
  0x90, 0xff, 0xff, 0xff, 0x14, 0x00, 0x18, 0x00, 0x04, 0x00, 0x00, 0x00,
  0x08, 0x00, 0x0c, 0x00, 0x10, 0x00, 0x00, 0x00, 0x00, 0x00, 0x14, 0x00,
  0x14, 0x00, 0x00, 0x00, 0x14, 0x00, 0x00, 0x00, 0x01, 0x00, 0x00, 0x00,
  0x18, 0x00, 0x00, 0x00, 0x44, 0x00, 0x00, 0x00, 0x34, 0x00, 0x00, 0x00,
  0x02, 0x00, 0x00, 0x00, 0x01, 0x00, 0x00, 0x00, 0x07, 0x00, 0x00, 0x00,
  0x1f, 0x00, 0x00, 0x00, 0x73, 0x65, 0x72, 0x76, 0x69, 0x6e, 0x67, 0x5f,
  0x64, 0x65, 0x66, 0x61, 0x75, 0x6c, 0x74, 0x5f, 0x64, 0x65, 0x6e, 0x73,
  0x65, 0x5f, 0x36, 0x5f, 0x69, 0x6e, 0x70, 0x75, 0x74, 0x3a, 0x30, 0x00,
  0x02, 0x00, 0x00, 0x00, 0xff, 0xff, 0xff, 0xff, 0x07, 0x00, 0x00, 0x00,
  0xfc, 0xff, 0xff, 0xff, 0x04, 0x00, 0x04, 0x00, 0x04, 0x00, 0x00, 0x00
};
unsigned int g_model_len = 3432;
